00001100 00001010 00001100 
00000010 00000110 00000000 
00001111 00001110 00001001 

00000110 00001000 00001001 
11111111 00001000 00001111 
00000111 00010000 00001010 

00001110 00001000 00001010 
00000111 00001100 11111110 
11111110 00001100 11111111 


11111111 00000100 00001111 
00001101 00000111 00001010 
00001010 00000101 00001100 

00010001 00001001 00000010 
00001110 00000000 00001000 
00000101 00001101 00001110 

00001110 00000111 00000011 
00000001 00010001 00001100 
11111111 11111111 00000111 


