00000000 00001100 00001101 
00000111 00001010 00001010 
00000010 00000101 00000100 

00000101 11111101 00000001 
00001000 00000010 00000101 
00000000 00001100 00000110 


00000110 00000110 00000011 
00001011 00000000 11111101 
00010000 00001100 00001000 

00000110 00000000 00000110 
00000010 00001001 00000110 
00000000 00001110 11111111 


00001011 00000110 00001111 
00000001 00000011 00001000 
00000011 00001111 00000000 

00000101 00000001 00000100 
00000111 00001010 00000010 
00000001 00000010 11111111 


