00000011 00001010 00000011 
00001010 11111100 00000000 
00001010 00000001 00001010 

11111111 00000001 11111100 
00001000 00000110 00001001 
00001010 11111011 11111101 

00000010 00001000 00000011 
11111101 11111100 11111111 
00000111 00000011 11111110 


00000011 11111100 00001010 
00000010 11111011 00001000 
11111101 00000000 00000100 

00000101 11111111 11111101 
00000100 11111011 00000100 
11111100 11111110 00000100 

11111111 11111110 00000000 
00000110 00000011 00001010 
00000111 00000111 11111111 


